<pad>	0
<s>	0
</s>	0
<unk>	0
<0x00>	0
<0x01>	0
<0x02>	0
<0x03>	0
<0x04>	0
<0x05>	0
<0x06>	0
<0x07>	0
<0x08>	0
<0x09>	0
<0x0A>	0
<0x0B>	0
<0x0C>	0
<0x0D>	0
<0x0E>	0
<0x0F>	0
<0x10>	0
<0x11>	0
<0x12>	0
<0x13>	0
<0x14>	0
<0x15>	0
<0x16>	0
<0x17>	0
<0x18>	0
<0x19>	0
<0x1A>	0
<0x1B>	0
<0x1C>	0
<0x1D>	0
<0x1E>	0
<0x1F>	0
<0x20>	0
<0x21>	0
<0x22>	0
<0x23>	0
<0x24>	0
<0x25>	0
<0x26>	0
<0x27>	0
<0x28>	0
<0x29>	0
<0x2A>	0
<0x2B>	0
<0x2C>	0
<0x2D>	0
<0x2E>	0
<0x2F>	0
<0x30>	0
<0x31>	0
<0x32>	0
<0x33>	0
<0x34>	0
<0x35>	0
<0x36>	0
<0x37>	0
<0x38>	0
<0x39>	0
<0x3A>	0
<0x3B>	0
<0x3C>	0
<0x3D>	0
<0x3E>	0
<0x3F>	0
<0x40>	0
<0x41>	0
<0x42>	0
<0x43>	0
<0x44>	0
<0x45>	0
<0x46>	0
<0x47>	0
<0x48>	0
<0x49>	0
<0x4A>	0
<0x4B>	0
<0x4C>	0
<0x4D>	0
<0x4E>	0
<0x4F>	0
<0x50>	0
<0x51>	0
<0x52>	0
<0x53>	0
<0x54>	0
<0x55>	0
<0x56>	0
<0x57>	0
<0x58>	0
<0x59>	0
<0x5A>	0
<0x5B>	0
<0x5C>	0
<0x5D>	0
<0x5E>	0
<0x5F>	0
<0x60>	0
<0x61>	0
<0x62>	0
<0x63>	0
<0x64>	0
<0x65>	0
<0x66>	0
<0x67>	0
<0x68>	0
<0x69>	0
<0x6A>	0
<0x6B>	0
<0x6C>	0
<0x6D>	0
<0x6E>	0
<0x6F>	0
<0x70>	0
<0x71>	0
<0x72>	0
<0x73>	0
<0x74>	0
<0x75>	0
<0x76>	0
<0x77>	0
<0x78>	0
<0x79>	0
<0x7A>	0
<0x7B>	0
<0x7C>	0
<0x7D>	0
<0x7E>	0
<0x7F>	0
<0x80>	0
<0x81>	0
<0x82>	0
<0x83>	0
<0x84>	0
<0x85>	0
<0x86>	0
<0x87>	0
<0x88>	0
<0x89>	0
<0x8A>	0
<0x8B>	0
<0x8C>	0
<0x8D>	0
<0x8E>	0
<0x8F>	0
<0x90>	0
<0x91>	0
<0x92>	0
<0x93>	0
<0x94>	0
<0x95>	0
<0x96>	0
<0x97>	0
<0x98>	0
<0x99>	0
<0x9A>	0
<0x9B>	0
<0x9C>	0
<0x9D>	0
<0x9E>	0
<0x9F>	0
<0xA0>	0
<0xA1>	0
<0xA2>	0
<0xA3>	0
<0xA4>	0
<0xA5>	0
<0xA6>	0
<0xA7>	0
<0xA8>	0
<0xA9>	0
<0xAA>	0
<0xAB>	0
<0xAC>	0
<0xAD>	0
<0xAE>	0
<0xAF>	0
<0xB0>	0
<0xB1>	0
<0xB2>	0
<0xB3>	0
<0xB4>	0
<0xB5>	0
<0xB6>	0
<0xB7>	0
<0xB8>	0
<0xB9>	0
<0xBA>	0
<0xBB>	0
<0xBC>	0
<0xBD>	0
<0xBE>	0
<0xBF>	0
<0xC0>	0
<0xC1>	0
<0xC2>	0
<0xC3>	0
<0xC4>	0
<0xC5>	0
<0xC6>	0
<0xC7>	0
<0xC8>	0
<0xC9>	0
<0xCA>	0
<0xCB>	0
<0xCC>	0
<0xCD>	0
<0xCE>	0
<0xCF>	0
<0xD0>	0
<0xD1>	0
<0xD2>	0
<0xD3>	0
<0xD4>	0
<0xD5>	0
<0xD6>	0
<0xD7>	0
<0xD8>	0
<0xD9>	0
<0xDA>	0
<0xDB>	0
<0xDC>	0
<0xDD>	0
<0xDE>	0
<0xDF>	0
<0xE0>	0
<0xE1>	0
<0xE2>	0
<0xE3>	0
<0xE4>	0
<0xE5>	0
<0xE6>	0
<0xE7>	0
<0xE8>	0
<0xE9>	0
<0xEA>	0
<0xEB>	0
<0xEC>	0
<0xED>	0
<0xEE>	0
<0xEF>	0
<0xF0>	0
<0xF1>	0
<0xF2>	0
<0xF3>	0
<0xF4>	0
<0xF5>	0
<0xF6>	0
<0xF7>	0
<0xF8>	0
<0xF9>	0
<0xFA>	0
<0xFB>	0
<0xFC>	0
<0xFD>	0
<0xFE>	0
<0xFF>	0
▁t	-0
▁a	-1
in	-2
he	-3
re	-4
▁o	-5
▁the	-6
er	-7
▁s	-8
▁w	-9
nd	-10
at	-11
on	-12
▁c	-13
it	-14
ou	-15
or	-16
es	-17
is	-18
en	-19
ing	-20
▁f	-21
▁b	-22
▁p	-23
an	-24
ed	-25
▁m	-26
▁to	-27
al	-28
▁and	-29
ar	-30
▁of	-31
▁in	-32
▁d	-33
ic	-34
▁h	-35
le	-36
as	-37
om	-38
▁th	-39
ion	-40
ll	-41
▁l	-42
ent	-43
▁T	-44
ve	-45
▁I	-46
▁e	-47
▁n	-48
▁re	-49
st	-50
▁y	-51
ro	-52
▁g	-53
ly	-54
et	-55
ac	-56
▁S	-57
▁you	-58
▁is	-59
ot	-60
▁be	-61
▁A	-62
ut	-63
id	-64
▁on	-65
ay	-66
▁for	-67
ow	-68
▁C	-69
ur	-70
se	-71
ct	-72
im	-73
ad	-74
am	-75
ver	-76
ig	-77
▁that	-78
▁u	-79
il	-80
ith	-81
▁st	-82
▁M	-83
ation	-84
ir	-85
ol	-86
▁it	-87
▁with	-88
▁he	-89
ce	-90
▁we	-91
▁The	-92
ch	-93
▁P	-94
▁B	-95
▁W	-96
▁wh	-97
▁as	-98
▁an	-99
ill	-100
ter	-101
if	-102
▁are	-103
ke	-104
▁H	-105
ers	-106
▁pro	-107
oo	-108
▁ha	-109
ag	-110
▁D	-111
ld	-112
ul	-113
ess	-114
▁F	-115
her	-116
em	-117
▁or	-118
▁at	-119
▁com	-120
pp	-121
ri	-122
▁se	-123
ate	-124
ore	-125
ra	-126
est	-127
▁R	-128
▁con	-129
us	-130
igh	-131
▁was	-132
th	-133
▁L	-134
▁ne	-135
el	-136
rom	-137
ab	-138
ist	-139
▁ex	-140
▁G	-141
un	-142
op	-143
ant	-144
um	-145
▁v	-146
qu	-147
▁r	-148
ort	-149
ive	-150
▁(	-151
ity	-152
▁your	-153
▁E	-154
▁N	-155
▁have	-156
res	-157
art	-158
▁de	-159
ust	-160
▁this	-161
pe	-162
ain	-163
▁O	-164
▁not	-165
nt	-166
▁sh	-167
▁from	-168
ies	-169
oc	-170
ment	-171
▁su	-172
▁can	-173
▁al	-174
and	-175
os	-176
▁ch	-177
▁by	-178
ight	-179
▁-	-180
our	-181
ome	-182
out	-183
ie	-184
▁wor	-185
▁J	-186
▁will	-187
ud	-188
all	-189
▁le	-190
iv	-191
▁ab	-192
gh	-193
ard	-194
ould	-195
▁pl	-196
ally	-197
ack	-198
red	-199
▁j	-200
od	-201
ide	-202
▁all	-203
te	-204
ost	-205
rou	-206
king	-207
▁do	-208
ge	-209
per	-210
▁k	-211
ine	-212
ast	-213
▁me	-214
▁“	-215
ear	-216
ice	-217
▁but	-218
ure	-219
..	-220
▁whe	-221
fe	-222
▁Th	-223
▁has	-224
act	-225
▁out	-226
ich	-227
pt	-228
ind	-229
▁ad	-230
ial	-231
ake	-232
very	-233
one	-234
ip	-235
▁In	-236
ther	-237
▁us	-238
▁their	-239
ood	-240
▁comp	-241
▁up	-242
▁so	-243
ry	-244
▁more	-245
▁U	-246
▁they	-247
▁en	-248
ks	-249
ous	-250
ions	-251
▁one	-252
▁my	-253
age	-254
able	-255
ong	-256
are	-257
▁cl	-258
▁te	-259
ated	-260
ime	-261
ite	-262
▁our	-263
▁his	-264
▁about	-265
og	-266
▁Y	-267
▁who	-268
ike	-269
▁im	-270
ap	-271
▁man	-272
cc	-273
iz	-274
ans	-275
ak	-276
ib	-277
ace	-278
so	-279
ame	-280
▁fe	-281
▁which	-282
▁sa	-283
▁It	-284
ru	-285
▁go	-286
▁inc	-287
▁K	-288
ach	-289
pl	-290
ne	-291
ays	-292
ia	-293
for	-294
▁cont	-295
▁V	-296
ance	-297
ber	-298
▁off	-299
ire	-300
▁res	-301
ond	-302
reat	-303
▁some	-304
▁"	-305
ass	-306
to	-307
ign	-308
ven	-309
ase	-310
▁We	-311
▁St	-312
ree	-313
ove	-314
ult	-315
ail	-316
▁qu	-317
du	-318
ff	-319
▁get	-320
▁app	-321
▁sp	-322
au	-323
ations	-324
ents	-325
▁them	-326
ence	-327
▁like	-328
▁other	-329
ary	-330
▁time	-331
ction	-332
now	-333
ep	-334
▁also	-335
ub	-336
ile	-337
▁any	-338
ount	-339
▁part	-340
▁there	-341
▁per	-342
▁pe	-343
▁dis	-344
ook	-345
▁Ch	-346
▁year	-347
▁un	-348
ick	-349
▁tr	-350
▁her	-351
ical	-352
vel	-353
ue	-354
▁new	-355
ings	-356
erv	-357
ord	-358
ose	-359
▁when	-360
▁had	-361
▁what	-362
ough	-363
av	-364
▁been	-365
▁were	-366
▁ar	-367
▁over	-368
▁rec	-369
▁just	-370
ild	-371
▁ag	-372
ress	-373
▁He	-374
form	-375
ound	-376
▁ro	-377
▁This	-378
ors	-379
▁would	-380
port	-381
▁pre	-382
ople	-383
▁if	-384
ition	-385
▁need	-386
ark	-387
▁sc	-388
▁bec	-389
ov	-390
ens	-391
▁know	-392
ob	-393
own	-394
wn	-395
ish	-396
▁how	-397
▁spe	-398
▁than	-399
▁into	-400
nder	-401
▁–	-402
irst	-403
fter	-404
oy	-405
▁am	-406
rough	-407
▁people	-408
▁work	-409
ory	-410
ater	-411
ren	-412
▁bl	-413
int	-414
ning	-415
itt	-416
ating	-417
▁pr	-418
mer	-419
end	-420
vers	-421
ang	-422
▁acc	-423
▁co	-424
ade	-425
▁its	-426
lud	-427
ck	-428
▁act	-429
ink	-430
ious	-431
▁des	-432
▁said	-433
ons	-434
we	-435
▁Wh	-436
ual	-437
▁only	-438
▁she	-439
amp	-440
anc	-441
▁Re	-442
▁first	-443
lic	-444
▁most	-445
lp	-446
old	-447
round	-448
▁make	-449
▁bu	-450
▁comm	-451
▁every	-452
▁no	-453
▁want	-454
▁You	-455
▁may	-456
ause	-457
▁tw	-458
▁fl	-459
▁through	-460
▁back	-461
▁prov	-462
ily	-463
ise	-464
▁help	-465
les	-466
▁includ	-467
hing	-468
▁ind	-469
ates	-470
ect	-471
▁bet	-472
▁well	-473
...	-474
▁see	-475
▁And	-476
ife	-477
tern	-478
sel	-479
rent	-480
hed	-481
ull	-482
▁po	-483
▁em	-484
day	-485
iew	-486
▁add	-487
ft	-488
ian	-489
ict	-490
▁very	-491
fore	-492
▁If	-493
▁these	-494
▁serv	-495
||	-496
▁way	-497
ful	-498
ities	-499
▁use	-500
▁after	-501
▁As	-502
▁rel	-503
▁produ	-504
▁many	-505
▁under	-506
gr	-507
▁dif	-508
▁ph	-509
▁two	-510
▁could	-511
▁exper	-512
▁good	-513
iss	-514
oll	-515
hen	-516
ices	-517
fect	-518
aw	-519
ph	-520
ject	-521
enc	-522
row	-523
▁cons	-524
▁rem	-525
ting	-526
▁play	-527
▁tra	-528
▁even	-529
rit	-530
lect	-531
▁Ne	-532
▁him	-533
▁where	-534
urn	-535
uch	-536
ience	-537
pport	-538
cess	-539
erson	-540
▁then	-541
als	-542
oth	-543
ty	-544
ward	-545
iness	-546
aking	-547
▁dec	-548
get	-549
▁now	-550
ts	-551
▁years	-552
bs	-553
▁loc	-554
▁att	-555
▁sm	-556
▁imp	-557
).	-558
▁down	-559
.”	-560
any	-561
▁should	-562
▁ke	-563
▁bus	-564
▁great	-565
▁own	-566
ific	-567
▁start	-568
xt	-569
▁ev	-570
▁inv	-571
hip	-572
▁day	-573
▁stud	-574
▁don	-575
▁Un	-576
▁ac	-577
▁gu	-578
▁For	-579
oss	-580
▁here	-581
ible	-582
▁Se	-583
ments	-584
ational	-585
▁An	-586
▁because	-587
ange	-588
▁ass	-589
▁find	-590
▁De	-591
ert	-592
▁sy	-593
pect	-594
▁did	-595
ident	-596
omet	-597
ased	-598
▁best	-599
▁much	-600
ower	-601
ath	-602
▁reg	-603
uring	-604
▁too	-605
up	-606
▁But	-607
arch	-608
ement	-609
olog	-610
other	-611
▁world	-612
air	-613
▁sec	-614
▁right	-615
ool	-616
com	-617
▁col	-618
▁ent	-619
ures	-620
ied	-621
ular	-622
hes	-623
ont	-624
velop	-625
ility	-626
▁such	-627
▁take	-628
its	-629
▁che	-630
▁Pro	-631
▁bel	-632
▁&	-633
line	-634
▁show	-635
▁inte	-636
▁br	-637
▁before	-638
▁Al	-639
▁life	-640
gan	-641
ell	-642
ics	-643
▁wee	-644
▁end	-645
▁read	-646
ock	-647
way	-648
▁Com	-649
▁high	-650
ms	-651
io	-652
▁fam	-653
self	-654
▁those	-655
riend	-656
),	-657
▁fin	-658
▁being	-659
▁made	-660
▁|	-661
ative	-662
▁ins	-663
▁long	-664
▁diffe	-665
▁car	-666
▁again	-667
ually	-668
▁call	-669
alth	-670
ener	-671
▁person	-672
▁disc	-673
ble	-674
▁spec	-675
ited	-676
ner	-677
▁pres	-678
▁op	-679
stem	-680
formation	-681
▁set	-682
ys	-683
▁$	-684
ient	-685
uc	-686
be	-687
rest	-688
▁art	-689
▁mon	-690
▁does	-691
▁min	-692
▁around	-693
▁Sh	-694
ix	-695
und	-696
The	-697
▁business	-698
▁mem	-699
▁inst	-700
atch	-701
ving	-702
▁while	-703
ather	-704
ness	-705
arket	-706
▁somet	-707
▁There	-708
▁hand	-709
wor	-710
ince	-711
▁Be	-712
▁home	-713
ives	-714
ouse	-715
▁sim	-716
led	-717
▁develop	-718
▁last	-719
▁feel	-720
▁cre	-721
ah	-722
ason	-723
oad	-724
▁think	-725
▁though	-726
pr	-727
▁vis	-728
▁So	-729
ollow	-730
▁really	-731
imes	-732
▁count	-733
ax	-734
ages	-735
ng	-736
▁gr	-737
▁sl	-738
▁going	-739
ale	-740
chool	-741
akes	-742
▁requ	-743
,”	-744
ave	-745
az	-746
▁sur	-747
ality	-748
ple	-749
▁look	-750
▁av	-751
▁ear	-752
ros	-753
ters	-754
▁med	-755
ier	-756
▁sk	-757
ene	-758
ins	-759
land	-760
▁love	-761
▁Cl	-762
▁each	-763
▁eas	-764
irect	-765
▁cour	-766
▁product	-767
iet	-768
ues	-769
▁They	-770
▁found	-771
oun	-772
chn	-773
gram	-774
gg	-775
▁pol	-776
ffect	-777
▁information	-778
▁ra	-779
ooking	-780
▁How	-781
▁str	-782
cept	-783
ines	-784
view	-785
▁place	-786
▁say	-787
▁New	-788
ween	-789
▁ser	-790
▁friend	-791
▁gl	-792
unity	-793
ittle	-794
▁det	-795
▁used	-796
▁different	-797
ces	-798
ced	-799
ash	-800
man	-801
▁comple	-802
▁char	-803
▁adv	-804
▁bo	-805
▁free	-806
▁ed	-807
▁inter	-808
▁trans	-809
▁sign	-810
▁lot	-811
▁cle	-812
▁follow	-813
▁provid	-814
▁lead	-815
▁child	-816
▁still	-817
ways	-818
▁top	-819
ved	-820
▁num	-821
▁exp	-822
ric	-823
▁list	-824
▁pub	-825
der	-826
▁design	-827
▁On	-828
ivers	-829
▁ret	-830
▁team	-831
▁mod	-832
▁Le	-833
ional	-834
▁Ar	-835
▁fil	-836
▁run	-837
▁both	-838
▁met	-839
▁build	-840
▁system	-841
▁process	-842
ize	-843
rib	-844
lease	-845
▁full	-846
▁‘	-847
▁few	-848
▁little	-849
▁happ	-850
ars	-851
▁lear	-852
▁support	-853
▁same	-854
▁things	-855
▁Ad	-856
roup	-857
alk	-858
ody	-859
▁pur	-860
ute	-861
▁What	-862
ten	-863
read	-864
▁mov	-865
▁real	-866
▁fr	-867
the	-868
▁open	-869
▁point	-870
▁form	-871
▁import	-872
▁care	-873
▁prof	-874
thing	-875
ants	-876
▁experience	-877
▁cur	-878
▁health	-879
▁something	-880
orn	-881
▁fun	-882
▁dri	-883
▁rep	-884
▁Is	-885
▁lar	-886
▁sub	-887
▁plan	-888
▁market	-889
▁Q	-890
ired	-891
▁between	-892
arm	-893
ever	-894
meric	-895
▁When	-896
ention	-897
oh	-898
iving	-899
▁cent	-900
ton	-901
▁Bl	-902
▁To	-903
ves	-904
reen	-905
▁ide	-906
▁come	-907
▁keep	-908
▁mus	-909
▁gener	-910
bers	-911
▁del	-912
▁better	-913
▁Te	-914
▁put	-915
▁Sc	-916
ump	-917
▁wr	-918
▁fact	-919
ized	-920
."	-921
▁She	-922
▁ext	-923
▁three	-924
erm	-925
▁program	-926
ross	-927
▁post	-928
▁All	-929
ustom	-930
▁wom	-931
▁pass	-932
▁always	-933
▁interest	-934
▁conf	-935
▁water	-936
ract	-937
ology	-938
▁big	-939
ik	-940
▁conc	-941
▁partic	-942
ank	-943
ital	-944
▁result	-945
▁int	-946
▁avail	-947
▁without	-948
ining	-949
ug	-950
ists	-951
▁aut	-952
▁never	-953
ution	-954
ata	-955
less	-956
▁project	-957
▁during	-958
▁soc	-959
ets	-960
▁rest	-961
▁family	-962
ering	-963
gy	-964
ames	-965
▁month	-966
▁sol	-967
▁try	-968
iqu	-969
▁Americ	-970
ature	-971
▁next	-972
stand	-973
▁days	-974
▁techn	-975
▁organ	-976
oot	-977
▁Tr	-978
▁var	-979
ially	-980
▁report	-981
ern	-982
▁At	-983
▁must	-984
▁poss	-985
▁tri	-986
▁company	-987
vern	-988
▁quest	-989
ours	-990
▁dist	-991
▁head	-992
▁Pl	-993
rand	-994
▁ref	-995
▁i	-996
▁resp	-997
▁contin	-998
ined	-999
▁law	-1000
ley	-1001
▁since	-1002
▁including	-1003
ared	-1004
▁got	-1005
uss	-1006
▁old	-1007
ield	-1008
▁online	-1009
▁important	-1010
▁book	-1011
▁school	-1012
▁ob	-1013
▁week	-1014
▁might	-1015
▁using	-1016
▁appro	-1017
▁available	-1018
▁small	-1019
▁unt	-1020
ling	-1021
▁pat	-1022
ately	-1023
▁direct	-1024
▁another	-1025
▁stand	-1026
me	-1027
ically	-1028
con	-1029
▁That	-1030
▁sure	-1031
▁main	-1032
aut	-1033
rist	-1034
▁record	-1035
▁area	-1036
eng	-1037
atur	-1038
▁incre	-1039
▁sit	-1040
▁group	-1041
els	-1042
ows	-1043
▁custom	-1044
▁manag	-1045
▁give	-1046
▁val	-1047
ccess	-1048
▁ca	-1049
▁ty	-1050
▁class	-1051
ients	-1052
▁power	-1053
▁room	-1054
▁second	-1055
▁God	-1056
▁Ex	-1057
,"	-1058
ished	-1059
▁expl	-1060
▁Ind	-1061
▁cond	-1062
▁bro	-1063
▁let	-1064
▁opt	-1065
outh	-1066
▁service	-1067
▁cr	-1068
▁provide	-1069
▁Sp	-1070
▁pri	-1071
▁rece	-1072
ote	-1073
▁pain	-1074
ember	-1075
▁effect	-1076
ware	-1077
▁grow	-1078
▁hard	-1079
ertain	-1080
▁proper	-1081
▁Ph	-1082
▁With	-1083
ism	-1084
▁Con	-1085
▁looking	-1086
▁No	-1087
▁def	-1088
oney	-1089
▁pay	-1090
▁within	-1091
▁bre	-1092
ted	-1093
▁sing	-1094
▁services	-1095
ER	-1096
▁belie	-1097
▁cor	-1098
▁cost	-1099
ffic	-1100
▁iss	-1101
cl	-1102
▁word	-1103
▁'	-1104
▁inf	-1105
▁pos	-1106
ann	-1107
joy	-1108
here	-1109
▁able	-1110
▁food	-1111
▁public	-1112
gin	-1113
ision	-1114
▁away	-1115
▁hot	-1116
▁making	-1117
▁prom	-1118
▁—	-1119
ior	-1120
▁ve	-1121
▁win	-1122
▁perform	-1123
illion	-1124
▁level	-1125
▁job	-1126
▁activ	-1127
▁dr	-1128
▁oper	-1129
▁dev	-1130
ample	-1131
▁Wor	-1132
▁bas	-1133
ently	-1134
▁game	-1135
▁Fr	-1136
ope	-1137
irl	-1138
▁Or	-1139
ency	-1140
▁proble	-1141
iversity	-1142
▁el	-1143
att	-1144
▁number	-1145
▁mil	-1146
▁less	-1147
▁webs	-1148
▁turn	-1149
▁intern	-1150
▁says	-1151
ney	-1152
pend	-1153
▁order	-1154
ium	-1155
▁meet	-1156
▁children	-1157
ems	-1158
pped	-1159
ina	-1160
▁special	-1161
br	-1162
▁hum	-1163
▁today	-1164
ery	-1165
▁light	-1166
▁local	-1167
▁visit	-1168
ret	-1169
▁fac	-1170
▁rese	-1171
ex	-1172
aj	-1173
ense	-1174
▁working	-1175
load	-1176
▁vide	-1177
▁supp	-1178
▁My	-1179
▁pop	-1180
ably	-1181
ised	-1182
ruct	-1183
▁Col	-1184
pping	-1185
▁view	-1186
▁against	-1187
▁tru	-1188
ream	-1189
▁equ	-1190
▁Christ	-1191
▁move	-1192
▁thing	-1193
ral	-1194
oice	-1195
utes	-1196
▁phot	-1197
rence	-1198
uck	-1199
enn	-1200
▁site	-1201
▁eng	-1202
▁data	-1203
ases	-1204
ified	-1205
▁side	-1206
gether	-1207
▁state	-1208
▁together	-1209
▁why	-1210
ivid	-1211
▁until	-1212
▁offer	-1213
ats	-1214
ploy	-1215
▁hist	-1216
raph	-1217
▁mar	-1218
▁leg	-1219
▁case	-1220
▁four	-1221
▁ter	-1222
▁indust	-1223
▁Am	-1224
▁Res	-1225
▁dem	-1226
iver	-1227
▁ask	-1228
▁mind	-1229
▁along	-1230
▁past	-1231
pec	-1232
side	-1233
▁prote	-1234
▁works	-1235
ooks	-1236
ories	-1237
▁understand	-1238
▁kind	-1239
▁est	-1240
of	-1241
tend	-1242
▁Man	-1243
▁success	-1244
▁enjoy	-1245
▁enough	-1246
▁times	-1247
▁ann	-1248
ains	-1249
ider	-1250
oon	-1251
▁es	-1252
ps	-1253
omm	-1254
▁May	-1255
med	-1256
ered	-1257
▁learn	-1258
ino	-1259
▁large	-1260
▁test	-1261
▁contro	-1262
▁Our	-1263
▁sal	-1264
▁done	-1265
ids	-1266
▁addition	-1267
augh	-1268
oint	-1269
▁bit	-1270
▁house	-1271
▁course	-1272
▁invest	-1273
▁profess	-1274
▁night	-1275
cent	-1276
ying	-1277
itive	-1278
▁friends	-1279
▁present	-1280
ills	-1281
ording	-1282
ission	-1283
▁community	-1284
▁Co	-1285
▁event	-1286
▁often	-1287
ured	-1288
co	-1289
▁women	-1290
▁become	-1291
ott	-1292
ising	-1293
▁ever	-1294
▁change	-1295
▁students	-1296
▁.	-1297
inal	-1298
▁par	-1299
ots	-1300
▁tell	-1301
▁creat	-1302
ster	-1303
▁Car	-1304
▁body	-1305
▁include	-1306
▁men	-1307
▁music	-1308
vernment	-1309
fort	-1310
▁One	-1311
▁access	-1312
▁current	-1313
▁beh	-1314
▁prev	-1315
iron	-1316
work	-1317
▁ess	-1318
veral	-1319
▁live	-1320
▁near	-1321
wards	-1322
ury	-1323
iety	-1324
orm	-1325
aim	-1326
ohn	-1327
ards	-1328
iven	-1329
ential	-1330
▁Mar	-1331
ived	-1332
part	-1333
atter	-1334
▁After	-1335
▁/	-1336
ird	-1337
▁impro	-1338
▁money	-1339
bo	-1340
irc	-1341
ries	-1342
▁story	-1343
▁others	-1344
▁educ	-1345
▁US	-1346
▁having	-1347
▁products	-1348
▁pract	-1349
osed	-1350
▁needs	-1351
▁easy	-1352
▁complete	-1353
▁writ	-1354
enef	-1355
▁beaut	-1356
ane	-1357
▁far	-1358
▁Cent	-1359
▁sw	-1360
aff	-1361
▁These	-1362
▁actually	-1363
ger	-1364
▁left	-1365
▁short	-1366
▁pa	-1367
▁cap	-1368
▁personal	-1369
ead	-1370
nect	-1371
ocus	-1372
let	-1373
▁stat	-1374
ique	-1375
aster	-1376
▁comes	-1377
ization	-1378
icle	-1379
▁cou	-1380
▁didn	-1381
ec	-1382
▁building	-1383
use	-1384
▁Fl	-1385
inc	-1386
ron	-1387
▁country	-1388
▁members	-1389
oci	-1390
▁city	-1391
▁mean	-1392
▁name	-1393
▁came	-1394
ination	-1395
ok	-1396
istr	-1397
ready	-1398
ability	-1399
▁applic	-1400
▁Su	-1401
aring	-1402
▁opport	-1403
▁review	-1404
ape	-1405
▁fav	-1406
▁const	-1407
iam	-1408
conom	-1409
▁getting	-1410
lish	-1411
osp	-1412
▁thought	-1413
tain	-1414
▁chang	-1415
▁elect	-1416
por	-1417
hor	-1418
aterial	-1419
▁ele	-1420
▁research	-1421
▁took	-1422
▁makes	-1423
▁several	-1424
▁website	-1425
▁offic	-1426
▁treat	-1427
▁aud	-1428
ator	-1429
▁possible	-1430
▁dra	-1431
▁camp	-1432
▁pot	-1433
iting	-1434
▁bring	-1435
▁following	-1436
IN	-1437
alf	-1438
ividual	-1439
▁quality	-1440
cri	-1441
▁called	-1442
ode	-1443
▁feat	-1444
▁doing	-1445
▁expect	-1446
acks	-1447
▁allow	-1448
▁already	-1449
ians	-1450
▁reason	-1451
ails	-1452
▁heart	-1453
▁hours	-1454
▁young	-1455
▁across	-1456
▁create	-1457
ww	-1458
▁la	-1459
ips	-1460
oor	-1461
▁En	-1462
▁land	-1463
▁once	-1464
▁happen	-1465
▁quick	-1466
room	-1467
sh	-1468
ienc	-1469
▁...	-1470
▁sex	-1471
arent	-1472
▁started	-1473
▁girl	-1474
▁Pr	-1475
aces	-1476
▁benef	-1477
▁means	-1478
ift	-1479
▁John	-1480
▁film	-1481
▁air	-1482
▁season	-1483
▁based	-1484
▁account	-1485
by	-1486
ored	-1487
▁Comm	-1488
▁Do	-1489
ones	-1490
▁mom	-1491
ither	-1492
▁adm	-1493
▁non	-1494
yle	-1495
▁check	-1496
▁individual	-1497
▁focus	-1498
lf	-1499
▁low	-1500
▁cult	-1501
▁share	-1502
▁charac	-1503
AT	-1504
ajor	-1505
most	-1506
orth	-1507
▁clear	-1508
fer	-1509
▁Tw	-1510
uture	-1511
ese	-1512
not	-1513
▁sum	-1514
▁won	-1515
ring	-1516
▁certain	-1517
▁Gu	-1518
▁App	-1519
▁minutes	-1520
▁development	-1521
ON	-1522
▁anal	-1523
▁news	-1524
itions	-1525
▁chall	-1526
▁appear	-1527
▁ant	-1528
▁space	-1529
idd	-1530
orts	-1531
▁Not	-1532
▁yet	-1533
inking	-1534
ony	-1535
une	-1536
▁video	-1537
▁perfect	-1538
viron	-1539
app	-1540
▁below	-1541
▁University	-1542
aken	-1543
mber	-1544
ances	-1545
uro	-1546
▁Can	-1547
▁Some	-1548
▁hold	-1549
▁Ste	-1550
▁exc	-1551
▁early	-1552
▁employ	-1553
tt	-1554
reet	-1555
unch	-1556
▁tem	-1557
urther	-1558
▁commun	-1559
We	-1560
▁Me	-1561
▁went	-1562
▁whole	-1563
▁Min	-1564
▁Fe	-1565
▁return	-1566
▁million	-1567
▁ce	-1568
▁American	-1569
ES	-1570
▁war	-1571
▁trad	-1572
▁material	-1573
ides	-1574
rodu	-1575
▁contact	-1576
ument	-1577
ulation	-1578
▁compet	-1579
rap	-1580
▁tre	-1581
▁mult	-1582
▁close	-1583
▁doesn	-1584
ided	-1585
over	-1586
▁Your	-1587
▁social	-1588
▁strong	-1589
▁begin	-1590
▁industry	-1591
▁compan	-1592
▁net	-1593
▁invol	-1594
▁Des	-1595
illed	-1596
ption	-1597
▁However	-1598
▁wa	-1599
ully	-1600
▁Eng	-1601
▁Af	-1602
▁Comp	-1603
▁fore	-1604
ush	-1605
▁fund	-1606
▁occ	-1607
▁orig	-1608
▁fre	-1609
ched	-1610
▁lim	-1611
▁step	-1612
▁later	-1613
▁purch	-1614
sw	-1615
urity	-1616
▁major	-1617
▁future	-1618
oose	-1619
icult	-1620
ew	-1621
▁range	-1622
▁particular	-1623
▁seen	-1624
▁travel	-1625
▁government	-1626
▁Che	-1627
ource	-1628
▁sound	-1629
▁blog	-1630
!!	-1631
▁vers	-1632
▁offers	-1633
aps	-1634
▁soft	-1635
▁relations	-1636
▁tal	-1637
ograph	-1638
▁colle	-1639
ris	-1640
ball	-1641
▁Now	-1642
▁Pres	-1643
▁deal	-1644
ners	-1645
▁least	-1646
▁cal	-1647
ister	-1648
▁Count	-1649
▁human	-1650
▁content	-1651
wh	-1652
▁cut	-1653
▁stay	-1654
iously	-1655
▁known	-1656
ply	-1657
▁line	-1658
▁Cal	-1659
▁black	-1660
▁cover	-1661
▁history	-1662
vironment	-1663
▁Pa	-1664
▁Ab	-1665
▁prep	-1666
▁search	-1667
pecially	-1668
urs	-1669
ights	-1670
▁Here	-1671
▁crit	-1672
rop	-1673
▁Rep	-1674
▁hig	-1675
lling	-1676
▁port	-1677
▁someone	-1678
▁anything	-1679
ee	-1680
ateg	-1681
▁econom	-1682
▁mag	-1683
▁clean	-1684
▁comb	-1685
▁enc	-1686
▁claim	-1687
▁single	-1688
▁discuss	-1689
▁results	-1690
▁told	-1691
ilities	-1692
▁everything	-1693
uff	-1694
▁redu	-1695
▁everyone	-1696
▁pict	-1697
▁believe	-1698
▁ens	-1699
▁mot	-1700
▁example	-1701
ged	-1702
▁buy	-1703
▁mor	-1704
▁Tra	-1705
▁five	-1706
▁self	-1707
ommend	-1708
yc	-1709
▁eff	-1710
▁wind	-1711
▁recommend	-1712
son	-1713
itor	-1714
▁Med	-1715
▁key	-1716
▁tour	-1717
▁Intern	-1718
▁months	-1719
de	-1720
iful	-1721
▁ener	-1722
▁field	-1723
ify	-1724
▁Will	-1725
▁particip	-1726
ibr	-1727
▁Br	-1728
▁rele	-1729
▁given	-1730
.,	-1731
ued	-1732
▁vi	-1733
urch	-1734
▁face	-1735
ference	-1736
▁control	-1737
▁Ed	-1738
▁ago	-1739
▁cell	-1740
▁pack	-1741
go	-1742
sc	-1743
ctor	-1744
▁Cont	-1745
▁diff	-1746
selves	-1747
▁companies	-1748
OR	-1749
Th	-1750
▁Go	-1751
▁ident	-1752
AR	-1753
eth	-1754
rew	-1755
▁pie	-1756
▁questions	-1757
atic	-1758
fact	-1759
elt	-1760
asing	-1761
imate	-1762
▁stop	-1763
utions	-1764
▁jo	-1765
▁watch	-1766
▁specific	-1767
iter	-1768
▁dating	-1769
▁amount	-1770
▁page	-1771
▁among	-1772
▁common	-1773
ained	-1774
▁above	-1775
▁email	-1776
▁words	-1777
▁x	-1778
acy	-1779
ford	-1780
oved	-1781
ources	-1782
▁series	-1783
ama	-1784
ung	-1785
....	-1786
▁price	-1787
▁United	-1788
▁Ass	-1789
▁ste	-1790
▁require	-1791
ili	-1792
▁By	-1793
▁Don	-1794
▁dam	-1795
▁natur	-1796
ned	-1797
▁Sy	-1798
resent	-1799
▁problem	-1800
▁relationship	-1801
uge	-1802
ledge	-1803
▁Euro	-1804
▁State	-1805
▁World	-1806
▁needed	-1807
ror	-1808
▁Pe	-1809
ilar	-1810
▁Dis	-1811
▁typ	-1812
▁City	-1813
▁wanted	-1814
irm	-1815
fully	-1816
▁talk	-1817
ensive	-1818
▁vol	-1819
▁entire	-1820
▁ey	-1821
chie	-1822
iday	-1823
▁skin	-1824
▁staff	-1825
IS	-1826
li	-1827
ork	-1828
▁et	-1829
ural	-1830
▁tax	-1831
▁media	-1832
▁please	-1833
umb	-1834
ches	-1835
▁Inst	-1836
▁areas	-1837
▁prob	-1838
▁Mc	-1839
▁brand	-1840
▁super	-1841
rie	-1842
though	-1843
▁favor	-1844
▁yourself	-1845
obal	-1846
▁necess	-1847
aur	-1848
▁age	-1849
▁wond	-1850
▁While	-1851
ites	-1852
▁His	-1853
▁seem	-1854
▁property	-1855
▁:	-1856
▁Just	-1857
▁idea	-1858
itten	-1859
▁party	-1860
▁various	-1861
▁download	-1862
▁education	-1863
cer	-1864
▁ris	-1865
▁road	-1866
▁further	-1867
▁protect	-1868
ges	-1869
ried	-1870
▁however	-1871
▁respons	-1872
▁especially	-1873
mb	-1874
iod	-1875
apan	-1876
▁connect	-1877
▁management	-1878
yl	-1879
pro	-1880
▁hope	-1881
▁question	-1882
▁pret	-1883
▁store	-1884
▁member	-1885
idence	-1886
▁difficult	-1887
ilt	-1888
ators	-1889
▁white	-1890
▁Dr	-1891
▁tot	-1892
ental	-1893
▁walk	-1894
▁office	-1895
zz	-1896
▁Rec	-1897
▁bad	-1898
▁bar	-1899
lement	-1900
▁press	-1901
▁either	-1902
▁circ	-1903
▁front	-1904
ging	-1905
▁Bar	-1906
▁Pol	-1907
▁nothing	-1908
▁consider	-1909
lished	-1910
▁training	-1911
▁technology	-1912
back	-1913
gest	-1914
▁almost	-1915
lex	-1916
abor	-1917
▁Europe	-1918
▁events	-1919
▁experienc	-1920
▁environment	-1921
▁sn	-1922
▁shows	-1923
▁energy	-1924
▁signific	-1925
It	-1926
ude	-1927
▁isn	-1928
▁learning	-1929
AN	-1930
▁Mr	-1931
ands	-1932
itted	-1933
▁taking	-1934
▁polic	-1935
ibility	-1936
▁Ke	-1937
▁dig	-1938
▁From	-1939
▁percent	-1940
▁according	-1941
af	-1942
pos	-1943
▁Gl	-1944
aily	-1945
vert	-1946
ively	-1947
▁miss	-1948
aching	-1949
▁break	-1950
▁z	-1951
ols	-1952
▁tas	-1953
▁foot	-1954
▁mach	-1955
▁taken	-1956
▁Im	-1957
ests	-1958
▁Aug	-1959
▁sent	-1960
▁improve	-1961
▁whether	-1962
▁TH	-1963
ober	-1964
▁cra	-1965
▁due	-1966
▁South	-1967
▁study	-1968
▁impact	-1969
▁living	-1970
▁rather	-1971
nes	-1972
▁Bro	-1973
▁author	-1974
new	-1975
▁Bo	-1976
▁assist	-1977
come	-1978
resh	-1979
ancial	-1980
▁Please	-1981
▁simply	-1982
▁features	-1983
hers	-1984
▁Sec	-1985
▁games	-1986
▁trying	-1987
ai	-1988
reg	-1989
book	-1990
ises	-1991
▁Serv	-1992
▁kids	-1993
▁priv	-1994
▁customers	-1995
▁Ju	-1996
ables	-1997
▁answ	-1998
▁cred	-1999
▁unique	-2000
▁includes	-2001
▁ways	-2002
▁pretty	-2003
ogn	-2004
▁Jan	-2005
▁beautiful	-2006
▁professional	-2007
▁web	-2008
asure	-2009
▁fall	-2010
▁mass	-2011
▁soon	-2012
uation	-2013
▁added	-2014
▁forward	-2015
▁red	-2016
▁Part	-2017
rug	-2018
irit	-2019
▁nice	-2020
eral	-2021
▁Japan	-2022
used	-2023
▁mess	-2024
▁period	-2025
uter	-2026
▁oil	-2027
▁Aust	-2028
▁Then	-2029
▁quite	-2030
▁couple	-2031
▁Gr	-2032
idge	-2033
▁simple	-2034
▁writing	-2035
gle	-2036
▁er	-2037
▁doc	-2038
▁achie	-2039
▁polit	-2040
▁Mus	-2041
▁half	-2042
play	-2043
▁accept	-2044
▁,	-2045
cell	-2046
▁probably	-2047
EN	-2048
▁upon	-2049
▁running	-2050
AS	-2051
▁else	-2052
▁Qu	-2053
▁abs	-2054
▁safe	-2055
angu	-2056
▁Dav	-2057
▁Per	-2058
itting	-2059
▁value	-2060
▁weeks	-2061
par	-2062
ume	-2063
▁hon	-2064
where	-2065
▁phys	-2066
▁ready	-2067
ruction	-2068
▁opportunity	-2069
eds	-2070
▁Mon	-2071
aging	-2072
▁coming	-2073
▁provided	-2074
hib	-2075
ief	-2076
▁Em	-2077
▁date	-2078
▁exam	-2079
▁role	-2080
aced	-2081
head	-2082
ires	-2083
▁six	-2084
nding	-2085
obile	-2086
uct	-2087
▁sun	-2088
▁Paul	-2089
▁court	-2090
▁County	-2091
▁action	-2092
▁popular	-2093
olf	-2094
▁fa	-2095
cial	-2096
rain	-2097
▁rad	-2098
▁phone	-2099
▁takes	-2100
lim	-2101
reme	-2102
▁concern	-2103
nam	-2104
▁pick	-2105
empt	-2106
▁cas	-2107
▁exist	-2108
lt	-2109
ada	-2110
ffe	-2111
▁true	-2112
▁activities	-2113
▁significant	-2114
▁More	-2115
▁ground	-2116
▁natural	-2117
▁Inc	-2118
oid	-2119
▁Sm	-2120
▁sho	-2121
▁host	-2122
▁created	-2123
▁throughout	-2124
IC	-2125
▁mix	-2126
▁sle	-2127
ufact	-2128
ication	-2129
▁announ	-2130
▁March	-2131
▁comfort	-2132
ma	-2133
aged	-2134
▁tar	-2135
▁inde	-2136
▁type	-2137
▁outside	-2138
▁position	-2139
ham	-2140
inks	-2141
▁death	-2142
▁likely	-2143
irt	-2144
▁Of	-2145
rugg	-2146
▁screen	-2147
▁ple	-2148
ublic	-2149
▁insp	-2150
▁third	-2151
▁worth	-2152
▁thinking	-2153
AL	-2154
ze	-2155
iff	-2156
▁sugg	-2157
▁drive	-2158
▁items	-2159
▁provides	-2160
▁security	-2161
ille	-2162
ming	-2163
▁boy	-2164
▁dou	-2165
▁size	-2166
▁song	-2167
▁wood	-2168
▁points	-2169
ival	-2170
▁Par	-2171
▁knowledge	-2172
▁international	-2173
.)	-2174
ED	-2175
ler	-2176
na	-2177
weet	-2178
▁Add	-2179
▁cool	-2180
▁behind	-2181
▁select	-2182
▁address	-2183
▁National	-2184
sy	-2185
▁Mich	-2186
▁paper	-2187
bor	-2188
icro	-2189
ules	-2190
▁Art	-2191
▁Reg	-2192
▁arri	-2193
▁hotel	-2194
▁express	-2195
▁required	-2196
▁init	-2197
▁anyone	-2198
▁designed	-2199
▁increase	-2200
time	-2201
▁fig	-2202
▁tit	-2203
gress	-2204
▁infl	-2205
▁jour	-2206
▁Black	-2207
▁continue	-2208
▁represent	-2209
▁performance	-2210
aign	-2211
aves	-2212
▁Off	-2213
▁etc	-2214
▁fit	-2215
▁issues	-2216
itch	-2217
▁obs	-2218
astic	-2219
▁School	-2220
▁decided	-2221
▁--	-2222
omes	-2223
▁tou	-2224
▁ideas	-2225
▁lives	-2226
▁moment	-2227
▁summer	-2228
erc	-2229
uary	-2230
nov	-2231
▁Cor	-2232
▁Har	-2233
▁Val	-2234
overed	-2235
▁States	-2236
▁President	-2237
crib	-2238
lebr	-2239
wood	-2240
▁Jer	-2241
▁York	-2242
▁asked	-2243
olution	-2244
▁mention	-2245
▁marketing	-2246
ana	-2247
▁fast	-2248
▁North	-2249
▁clients	-2250
▁problems	-2251
▁remember	-2252
In	-2253
US	-2254
org	-2255
val	-2256
azing	-2257
ground	-2258
▁happy	-2259
agement	-2260
▁Ag	-2261
▁Every	-2262
▁board	-2263
▁color	-2264
▁speak	-2265
my	-2266
▁blood	-2267
▁issue	-2268
▁details	-2269
▁character	-2270
▁Apr	-2271
▁leaders	-2272
ification	-2273
▁included	-2274
arter	-2275
▁coll	-2276
▁extra	-2277
▁choose	-2278
▁growth	-2279
▁article	-2280
ram	-2281
rect	-2282
▁lay	-2283
▁neg	-2284
▁sil	-2285
ison	-2286
▁emb	-2287
▁saw	-2288
▁Park	-2289
ky	-2290
vis	-2291
iple	-2292
year	-2293
▁Was	-2294
▁coun	-2295
▁town	-2296
▁higher	-2297
▁introdu	-2298
//	-2299
ara	-2300
hod	-2301
ole	-2302
urg	-2303
▁El	-2304
▁Day	-2305
▁bed	-2306
▁pen	-2307
▁sat	-2308
anced	-2309
▁card	-2310
▁cannot	-2311
▁ensure	-2312
▁target	-2313
▁general	-2314
▁written	-2315
▁themselves	-2316
▁Acc	-2317
▁bott	-2318
▁print	-2319
▁Center	-2320
IT	-2321
medi	-2322
pper	-2323
▁son	-2324
▁repl	-2325
▁stri	-2326
urance	-2327
▁woman	-2328
▁receive	-2329
▁ball	-2330
▁leave	-2331
▁associ	-2332
://	-2333
ety	-2334
▁drug	-2335
▁final	-2336
▁langu	-2337
▁August	-2338
▁inside	-2339
▁matter	-2340
▁myself	-2341
▁collect	-2342
str	-2343
▁ut	-2344
adem	-2345
face	-2346
▁squ	-2347
iding	-2348
istic	-2349
itional	-2350
▁recent	-2351
▁original	-2352
▁practice	-2353
anks	-2354
▁sens	-2355
▁Afric	-2356
▁House	-2357
▁defin	-2358
▁respect	-2359
▁box	-2360
▁felt	-2361
verage	-2362
▁wonder	-2363
▁options	-2364
▁TV	-2365
erve	-2366
▁Pre	-2367
izing	-2368
▁Road	-2369
▁itself	-2370
▁morning	-2371
▁challeng	-2372
ux	-2373
▁af	-2374
vent	-2375
iddle	-2376
▁July	-2377
▁fire	-2378
▁attend	-2379
▁hy	-2380
▁log	-2381
▁anim	-2382
▁dest	-2383
▁loss	-2384
▁teac	-2385
▁similar	-2386
▁projects	-2387
▁financial	-2388
▁Ge	-2389
▁gra	-2390
▁opp	-2391
▁wall	-2392
▁plant	-2393
▁recently	-2394
ops	-2395
▁di	-2396
▁began	-2397
▁exact	-2398
▁method	-2399
dd	-2400
hood	-2401
▁imm	-2402
▁mat	-2403
ker	-2404
rict	-2405
▁hit	-2406
▁movie	-2407
▁celebr	-2408
▁determ	-2409
▁treatment	-2410
airs	-2411
cing	-2412
▁Oct	-2413
▁late	-2414
▁official	-2415
uth	-2416
▁lat	-2417
atory	-2418
▁daily	-2419
▁track	-2420
▁recogn	-2421
▁America	-2422
▁playing	-2423
▁application	-2424
▁ep	-2425
ades	-2426
▁Get	-2427
erous	-2428
▁link	-2429
▁green	-2430
▁received	-2431
▁potential	-2432
▁deep	-2433
▁term	-2434
▁wide	-2435
▁table	-2436
isc	-2437
▁Fin	-2438
▁upd	-2439
▁Most	-2440
▁users	-2441
▁Us	-2442
▁ri	-2443
reng	-2444
▁Int	-2445
▁Stud	-2446
▁attempt	-2447
▁located	-2448
▁usually	-2449
ecut	-2450
rael	-2451
▁hor	-2452
▁Even	-2453
▁huge	-2454
ald	-2455
▁pers	-2456
▁send	-2457
▁model	-2458
▁longer	-2459
▁Act	-2460
light	-2461
▁West	-2462
▁cand	-2463
▁books	-2464
▁fight	-2465
▁chance	-2466
▁subject	-2467
▁version	-2468
▁Ob	-2469
kend	-2470
▁htt	-2471
ening	-2472
useum	-2473
▁regular	-2474
itc	-2475
omin	-2476
▁worked	-2477
▁changes	-2478
▁systems	-2479
▁campaign	-2480
▁attention	-2481
▁Bu	-2482
▁Sch	-2483
ailed	-2484
▁High	-2485
▁Sept	-2486
▁April	-2487
istration	-2488
ox	-2489
eter	-2490
▁door	-2491
▁wasn	-2492
▁autom	-2493
▁location	-2494
nal	-2495
▁Pat	-2496
▁Cour	-2497
▁held	-2498
▁sites	-2499
▁global	-2500
▁decision	-2501
▁favorite	-2502
ny	-2503
ael	-2504
▁bag	-2505
▁dog	-2506
oogle	-2507
▁goal	-2508
▁prior	-2509
▁affect	-2510
ees	-2511
mit	-2512
irth	-2513
▁Bet	-2514
▁reve	-2515
▁cause	-2516
▁hands	-2517
▁Direct	-2518
▁easily	-2519
▁suggest	-2520
▁positive	-2521
▁necessary	-2522
sp	-2523
rec	-2524
amer	-2525
icles	-2526
▁Char	-2527
▁stra	-2528
▁became	-2529
▁manufact	-2530
▁interesting	-2531
mas	-2532
just	-2533
▁dep	-2534
▁separ	-2535
▁choice	-2536
▁depend	-2537
▁himself	-2538
▁quickly	-2539
hy	-2540
▁aw	-2541
▁lo	-2542
▁Let	-2543
▁Sim	-2544
▁consum	-2545
▁parent	-2546
▁weight	-2547
▁players	-2548
lin	-2549
▁Dep	-2550
aving	-2551
▁Brit	-2552
▁goes	-2553
▁sell	-2554
▁match	-2555
▁Are	-2556
▁Her	-2557
▁Well	-2558
▁capt	-2559
▁Under	-2560
▁police	-2561
▁saying	-2562
▁Sal	-2563
atform	-2564
▁estab	-2565
▁wrong	-2566
▁levels	-2567
▁pan	-2568
ipment	-2569
RE	-2570
su	-2571
right	-2572
▁agre	-2573
▁base	-2574
▁flow	-2575
▁amazing	-2576
▁national	-2577
fl	-2578
▁Ac	-2579
ancy	-2580
ares	-2581
lier	-2582
like	-2583
▁lif	-2584
oring	-2585
▁ones	-2586
▁seems	-2587
▁attack	-2588
▁device	-2589
▁reading	-2590
cil	-2591
oly	-2592
icated	-2593
▁admin	-2594
▁style	-2595
▁skills	-2596
▁attract	-2597
ING	-2598
ato	-2599
▁cop	-2600
▁deb	-2601
▁June	-2602
▁helps	-2603
▁modern	-2604
▁cook	-2605
▁fresh	-2606
▁instead	-2607
ida	-2608
▁Law	-2609
▁bud	-2610
▁cup	-2611
▁ill	-2612
attle	-2613
▁Free	-2614
▁text	-2615
▁Israel	-2616
▁center	-2617
▁engine	-2618
▁moving	-2619
▁culture	-2620
enge	-2621
▁Also	-2622
▁built	-2623
▁Austral	-2624
▁install	-2625
▁involved	-2626
▁production	-2627
aint	-2628
▁hol	-2629
ached	-2630
▁clos	-2631
▁legal	-2632
▁voice	-2633
▁write	-2634
▁restaur	-2635
pose	-2636
ruit	-2637
ester	-2638
▁draw	-2639
▁hear	-2640
▁risk	-2641
▁streng	-2642
▁Feb	-2643
asons	-2644
▁Wind	-2645
▁viol	-2646
iation	-2647
▁terms	-2648
▁standard	-2649
OM	-2650
OU	-2651
earch	-2652
ilies	-2653
▁parts	-2654
▁stuff	-2655
▁answer	-2656
▁former	-2657
▁digital	-2658
▁related	-2659
onse	-2660
▁gets	-2661
aining	-2662
▁frequ	-2663
▁smart	-2664
▁medical	-2665
”.	-2666
oke	-2667
enty	-2668
▁Cons	-2669
▁rent	-2670
illing	-2671
▁trust	-2672
ovember	-2673
▁excell	-2674
▁mother	-2675
▁student	-2676
ples	-2677
rown	-2678
▁San	-2679
▁Lord	-2680
▁dead	-2681
▁China	-2682
▁neigh	-2683
mercial	-2684
▁giving	-2685
▁healthy	-2686
▁towards	-2687
▁computer	-2688
▁successful	-2689
AC	-2690
pite	-2691
▁Pal	-2692
▁via	-2693
▁hair	-2694
▁lost	-2695
▁user	-2696
ructure	-2697
▁immedi	-2698
▁software	-2699
ek	-2700
ship	-2701
▁gar	-2702
▁gen	-2703
▁inj	-2704
itter	-2705
rought	-2706
▁private	-2707
▁additional	-2708
oday	-2709
▁Hot	-2710
▁deg	-2711
▁div	-2712
order	-2713
estern	-2714
▁Trans	-2715
▁gives	-2716
board	-2717
▁band	-2718
▁hour	-2719
▁race	-2720
▁encour	-2721
▁latest	-2722
▁regard	-2723
ened	-2724
▁Bus	-2725
ength	-2726
▁Many	-2727
▁milk	-2728
▁analy	-2729
▁maybe	-2730
▁mount	-2731
aturday	-2732
▁places	-2733
fficient	-2734
▁January	-2735
▁ability	-2736
▁weekend	-2737
▁countries	-2738
▁sometimes	-2739
▁organization	-2740
aby	-2741
hel	-2742
roll	-2743
▁Read	-2744
▁note	-2745
▁sett	-2746
▁apply	-2747
▁floor	-2748
▁meeting	-2749
▁variety	-2750
▁approach	-2751
▁currently	-2752
ams	-2753
mon	-2754
▁Why	-2755
▁imag	-2756
▁India	-2757
▁contrib	-2758
▁eat	-2759
▁saf	-2760
▁David	-2761
▁click	-2762
▁comment	-2763
▁providing	-2764
St	-2765
▁Red	-2766
▁sus	-2767
▁highly	-2768
▁policy	-2769
▁region	-2770
▁language	-2771
▁September	-2772
oom	-2773
amed	-2774
iforn	-2775
▁fair	-2776
▁path	-2777
▁surpr	-2778
lection	-2779
▁depart	-2780
▁contract	-2781
:||	-2782
cast	-2783
▁Ser	-2784
▁veh	-2785
ought	-2786
▁Once	-2787
▁image	-2788
▁allows	-2789
▁achieve	-2790
▁network	-2791
▁critical	-2792
▁purchase	-2793
EC	-2794
OT	-2795
amb	-2796
▁ver	-2797
▁spot	-2798
▁aware	-2799
▁essay	-2800
itely	-2801
▁Techn	-2802
▁looks	-2803
▁patients	-2804
▁platform	-2805
▁interested	-2806
This	-2807
▁Any	-2808
▁relig	-2809
▁sense	-2810
itation	-2811
▁groups	-2812
▁played	-2813
▁spirit	-2814
▁display	-2815
▁request	-2816
▁benefits	-2817
ani	-2818
gar	-2819
ule	-2820
▁Sw	-2821
uses	-2822
▁bur	-2823
idents	-2824
▁faith	-2825
igation	-2826
unities	-2827
ls	-2828
▁Je	-2829
▁vot	-2830
▁club	-2831
action	-2832
▁carry	-2833
▁credit	-2834
▁feeling	-2835
add	-2836
▁Soc	-2837
▁total	-2838
▁effort	-2839
▁father	-2840
▁object	-2841
cription	-2842
▁William	-2843
▁document	-2844
oud	-2845
arden	-2846
▁qual	-2847
atever	-2848
▁Since	-2849
ifornia	-2850
▁War	-2851
▁fed	-2852
antly	-2853
iring	-2854
▁defe	-2855
▁emot	-2856
▁gave	-2857
cember	-2858
ishing	-2859
▁Great	-2860
▁piece	-2861
▁wants	-2862
▁concept	-2863
▁directly	-2864
▁International	-2865
▁aim	-2866
iable	-2867
▁fine	-2868
▁pred	-2869
▁star	-2870
ension	-2871
aughter	-2872
▁advert	-2873
▁function	-2874
ST	-2875
ha	-2876
uk	-2877
set	-2878
vin	-2879
haps	-2880
▁ten	-2881
▁First	-2882
▁career	-2883
▁audience	-2884
▁equipment	-2885
apt	-2886
duc	-2887
pri	-2888
▁Oh	-2889
orge	-2890
inner	-2891
▁Each	-2892
▁slow	-2893
atives	-2894
ession	-2895
▁dress	-2896
▁except	-2897
▁stories	-2898
▁families	-2899
▁partners	-2900
aly	-2901
off	-2902
ray	-2903
wide	-2904
▁Two	-2905
▁aff	-2906
▁ult	-2907
▁prim	-2908
▁Gener	-2909
▁lower	-2910
▁moved	-2911
▁sales	-2912
▁Associ	-2913
▁Saturday	-2914
▁maintain	-2915
▁effective	-2916
dom	-2917
▁UK	-2918
▁fem	-2919
▁jud	-2920
▁norm	-2921
▁pull	-2922
iction	-2923
▁mobile	-2924
▁photos	-2925
▁complex	-2926
▁activity	-2927
ibly	-2928
▁adult	-2929
▁sleep	-2930
▁nature	-2931
▁response	-2932
bit	-2933
ague	-2934
rote	-2935
▁arg	-2936
▁cru	-2937
iling	-2938
▁promot	-2939
▁machine	-2940
▁political	-2941
pm	-2942
hest	-2943
wise	-2944
▁ded	-2945
▁Best	-2946
▁arch	-2947
▁rout	-2948
▁trip	-2949
▁warm	-2950
▁November	-2951
key	-2952
urt	-2953
hold	-2954
▁Ear	-2955
▁Rem	-2956
ivity	-2957
ration	-2958
▁plans	-2959
▁round	-2960
▁shall	-2961
▁touch	-2962
▁types	-2963
▁Friday	-2964
▁cheese	-2965
zy	-2966
aker	-2967
ysis	-2968
▁vac	-2969
based	-2970
▁grad	-2971
▁wife	-2972
▁liter	-2973
het	-2974
▁IS	-2975
chan	-2976
iced	-2977
izes	-2978
▁THE	-2979
▁Prof	-2980
▁dump	-2981
▁save	-2982
ctions	-2983
▁miles	-2984
▁stage	-2985
▁brother	-2986
▁meaning	-2987
▁solution	-2988
▁beginning	-2989
LL	-2990
ils	-2991
hern	-2992
▁wal	-2993
aries	-2994
▁Sund	-2995
▁guide	-2996
▁reach	-2997
▁integr	-2998
▁safety	-2999
▁December	-3000
▁customer	-3001
amm	-3002
▁Jew	-3003
▁Port	-3004
▁suit	-3005
▁costs	-3006
▁Market	-3007
▁leading	-3008
▁released	-3009
▁bal	-3010
▁cat	-3011
▁enh	-3012
▁ing	-3013
cause	-3014
▁Post	-3015
▁offe	-3016
▁vict	-3017
▁option	-3018
ological	-3019
▁release	-3020
▁section	-3021
▁materials	-3022
▁completely	-3023
omb	-3024
▁La	-3025
▁Spr	-3026
▁Coun	-3027
▁cart	-3028
▁accom	-3029
artment	-3030
▁images	-3031
▁describ	-3032
▁finally	-3033
▁starting	-3034
▁therefore	-3035
Wh	-3036
min	-3037
▁Loc	-3038
ategy	-3039
▁feed	-3040
▁rate	-3041
ibrary	-3042
▁dream	-3043
▁thous	-3044
▁programs	-3045
▁California	-3046
AM	-3047
pre	-3048
ceed	-3049
ooth	-3050
▁wel	-3051
ivery	-3052
▁Make	-3053
▁Sing	-3054
▁file	-3055
▁knew	-3056
rences	-3057
▁Street	-3058
▁situation	-3059
ston	-3060
aught	-3061
enior	-3062
▁chem	-3063
▁award	-3064
▁cases	-3065
▁cross	-3066
▁truly	-3067
▁picture	-3068
▁Business	-3069
EO	-3070
ica	-3071
▁Up	-3072
more	-3073
▁rev	-3074
▁tom	-3075
▁firm	-3076
▁Other	-3077
▁fully	-3078
▁nearly	-3079
▁source	-3080
▁multiple	-3081
▁Sel	-3082
▁tele	-3083
▁Trump	-3084
▁heard	-3085
▁Christmas	-3086
▁interview	-3087
▁spent	-3088
hington	-3089
▁English	-3090
▁resources	-3091
▁bi	-3092
imum	-3093
▁eyes	-3094
▁wrote	-3095
▁turned	-3096
▁organiz	-3097
▁expected	-3098
bed	-3099
▁fear	-3100
uesday	-3101
▁expert	-3102
▁consist	-3103
▁conditions	-3104
He	-3105
▁Op	-3106
▁ge	-3107
anch	-3108
ffee	-3109
iles	-3110
▁sche	-3111
idered	-3112
▁peace	-3113
▁looked	-3114
▁respond	-3115
▁weather	-3116
▁developed	-3117
▁published	-3118
▁opportunities	-3119
pa	-3120
ya	-3121
aled	-3122
▁Mor	-3123
ondon	-3124
▁dise	-3125
▁Found	-3126
▁birth	-3127
▁enter	-3128
▁title	-3129
▁budget	-3130
▁convers	-3131
▁excellent	-3132
▁insurance	-3133
gn	-3134
lo	-3135
ios	-3136
unt	-3137
body	-3138
iate	-3139
icks	-3140
▁dry	-3141
istry	-3142
world	-3143
▁acqu	-3144
▁emer	-3145
ancing	-3146
ements	-3147
▁Court	-3148
▁loved	-3149
▁advant	-3150
▁stress	-3151
▁brought	-3152
▁challenge	-3153
aks	-3154
avy	-3155
▁WO	-3156
▁tur	-3157
▁correct	-3158
▁growing	-3159
▁creating	-3160
TM	-3161
ube	-3162
lege	-3163
uted	-3164
▁Net	-3165
▁mid	-3166
iment	-3167
▁advice	-3168
ager	-3169
ivil	-3170
sych	-3171
▁Aut	-3172
▁Rel	-3173
▁dro	-3174
aches	-3175
▁Find	-3176
▁appe	-3177
▁James	-3178
▁avoid	-3179
▁tools	-3180
nection	-3181
▁Michael	-3182
▁October	-3183
▁powerful	-3184
arr	-3185
▁Ang	-3186
▁hop	-3187
▁subs	-3188
icking	-3189
▁goals	-3190
▁pages	-3191
▁Design	-3192
▁commit	-3193
▁According	-3194
▁condition	-3195
▁president	-3196
▁transport	-3197
▁Washington	-3198
IP	-3199
rs	-3200
▁esc	-3201
▁Face	-3202
▁Super	-3203
imately	-3204
▁Health	-3205
▁reported	-3206
▁individuals	-3207
bum	-3208
▁See	-3209
▁nut	-3210
itect	-3211
▁Over	-3212
▁feet	-3213
▁fell	-3214
▁hosp	-3215
▁join	-3216
▁wait	-3217
▁basic	-3218
▁player	-3219
▁purpose	-3220
Ch	-3221
mm	-3222
”,	-3223
ruary	-3224
▁King	-3225
▁sold	-3226
▁Today	-3227
▁satis	-3228
▁spend	-3229
▁average	-3230
▁economy	-3231
▁pictures	-3232
▁characters	-3233
arc	-3234
ocr	-3235
▁Jes	-3236
▁Whe	-3237
▁led	-3238
onday	-3239
▁Educ	-3240
▁prem	-3241
▁tick	-3242
uments	-3243
▁alone	-3244
▁influ	-3245
▁stock	-3246
▁states	-3247
▁commercial	-3248
▁Mat	-3249
▁Met	-3250
▁ble	-3251
▁girls	-3252
▁During	-3253
▁parents	-3254
▁reasons	-3255
▁independ	-3256
▁businesses	-3257
ND	-3258
▁kn	-3259
nded	-3260
▁pet	-3261
acing	-3262
cribe	-3263
orrow	-3264
ville	-3265
▁lots	-3266
▁apart	-3267
▁exerc	-3268
▁Sunday	-3269
▁histor	-3270
▁exactly	-3271
▁extreme	-3272
▁serious	-3273
▁surround	-3274
▁certainly	-3275
▁particularly	-3276
iant	-3277
▁Ant	-3278
▁fat	-3279
▁ord	-3280
orage	-3281
▁force	-3282
▁photo	-3283
▁tried	-3284
▁Google	-3285
▁Japanese	-3286
▁Department	-3287
net	-3288
will	-3289
aling	-3290
arily	-3291
itary	-3292
▁dark	-3293
▁heat	-3294
▁innov	-3295
▁impress	-3296
▁director	-3297
▁physical	-3298
▁wonderful	-3299
ores	-3300
rast	-3301
▁Lear	-3302
▁cells	-3303
▁contain	-3304
▁offering	-3305
▁considered	-3306
▁definitely	-3307
▁Use	-3308
▁pow	-3309
ruggle	-3310
▁Group	-3311
▁speed	-3312
▁London	-3313
▁casino	-3314
▁opening	-3315
IG	-3316
▁den	-3317
▁cash	-3318
▁jobs	-3319
▁Because	-3320
▁measure	-3321
▁prevent	-3322
▁talking	-3323
▁strategy	-3324
▁employees	-3325
mp	-3326
▁Mac	-3327
inger	-3328
▁Good	-3329
▁afford	-3330
▁prices	-3331
".	-3332
yond	-3333
▁mer	-3334
▁obv	-3335
ously	-3336
▁Down	-3337
▁length	-3338
▁spring	-3339
▁straight	-3340
▁increased	-3341
aven	-3342
iber	-3343
lled	-3344
icate	-3345
inary	-3346
▁Jack	-3347
▁cert	-3348
▁lack	-3349
▁uses	-3350
▁behav	-3351
ecutive	-3352
▁client	-3353
▁driver	-3354
▁nation	-3355
▁conduct	-3356
▁greater	-3357
▁traffic	-3358
▁difference	-3359
▁traditional	-3360
▁understanding	-3361
hens	-3362
▁Wed	-3363
▁lad	-3364
▁fant	-3365
▁guys	-3366
▁http	-3367
▁Water	-3368
▁charge	-3369
▁coffee	-3370
▁deliver	-3371
▁largest	-3372
▁internet	-3373
▁applications	-3374
bl	-3375
▁PC	-3376
rian	-3377
▁Out	-3378
▁Sub	-3379
▁har	-3380
arant	-3381
ipped	-3382
▁Gold	-3383
▁clin	-3384
▁load	-3385
▁train	-3386
▁truth	-3387
▁obtain	-3388
▁seeing	-3389
▁window	-3390
▁Project	-3391
▁feature	-3392
▁reviews	-3393
▁previous	-3394
▁progress	-3395
nds	-3396
vest	-3397
▁Cle	-3398
▁lab	-3399
▁lik	-3400
itors	-3401
usion	-3402
▁Hill	-3403
▁sort	-3404
▁extend	-3405
▁inform	-3406
▁benefit	-3407
▁efforts	-3408
▁happened	-3409
▁planning	-3410
▁profession	-3411
cle	-3412
lam	-3413
uel	-3414
▁ur	-3415
▁News	-3416
▁mark	-3417
▁prec	-3418
▁thus	-3419
ipping	-3420
▁basis	-3421
▁block	-3422
▁ideal	-3423
▁actual	-3424
▁easier	-3425
▁temper	-3426
▁limited	-3427
▁European	-3428
▁implement	-3429
oe	-3430
alt	-3431
rel	-3432
omen	-3433
sequ	-3434
▁und	-3435
▁East	-3436
▁hous	-3437
friend	-3438
▁exhib	-3439
▁active	-3440
▁candid	-3441
▁College	-3442
▁announced	-3443
▁solutions	-3444
▁statement	-3445
olute	-3446
▁wild	-3447
▁lines	-3448
▁serve	-3449
▁subst	-3450
▁sweet	-3451
▁appoint	-3452
▁February	-3453
▁essential	-3454
▁increasing	-3455
ss	-3456
ipe	-3457
▁Bel	-3458
▁Tour	-3459
▁blue	-3460
▁tree	-3461
▁Green	-3462
▁audio	-3463
▁damage	-3464
▁demand	-3465
▁middle	-3466
▁rights	-3467
▁reports	-3468
▁delivery	-3469
▁immediately	-3470
que	-3471
see	-3472
name	-3473
▁Mag	-3474
▁Web	-3475
▁eye	-3476
▁guy	-3477
akers	-3478
erved	-3479
phone	-3480
▁Hall	-3481
▁prot	-3482
▁shot	-3483
isions	-3484
undred	-3485
▁Check	-3486
▁prefer	-3487
▁Company	-3488
▁offered	-3489
▁whatever	-3490
AP	-3491
ado	-3492
asc	-3493
ken	-3494
vant	-3495
▁www	-3496
oming	-3497
▁doub	-3498
▁shop	-3499
▁teams	-3500
ography	-3501
unately	-3502
▁Monday	-3503
ications	-3504
▁consult	-3505
▁requirements	-3506
vey	-3507
oving	-3508
▁Alex	-3509
▁Club	-3510
▁Home	-3511
▁Life	-3512
▁clot	-3513
▁Inter	-3514
▁Office	-3515
▁useful	-3516
▁partner	-3517
▁strength	-3518
ET	-3519
ences	-3520
istan	-3521
▁White	-3522
▁whose	-3523
▁incred	-3524
▁owners	-3525
▁effects	-3526
▁strateg	-3527
▁although	-3528
▁appropri	-3529
▁collection	-3530
▁population	-3531
▁construction	-3532
?”	-3533
ago	-3534
Free	-3535
amin	-3536
▁fix	-3537
ronic	-3538
works	-3539
▁park	-3540
▁sale	-3541
▁wish	-3542
itchen	-3543
▁reduce	-3544
▁threat	-3545
▁message	-3546
▁background	-3547
che	-3548
oms	-3549
put	-3550
band	-3551
▁mis	-3552
▁perm	-3553
▁rock	-3554
▁Jesus	-3555
▁eight	-3556
▁pregn	-3557
▁shape	-3558
▁Canada	-3559
▁People	-3560
▁aspect	-3561
▁beauty	-3562
▁church	-3563
▁Tuesday	-3564
▁Windows	-3565
▁learned	-3566
▁reflect	-3567
▁challenges	-3568
--	-3569
ett	-3570
oos	-3571
ste	-3572
zzam	-3573
▁Aud	-3574
▁Top	-3575
▁cit	-3576
▁Mark	-3577
▁gold	-3578
▁mist	-3579
▁earth	-3580
▁shoot	-3581
▁shown	-3582
▁helped	-3583
▁earlier	-3584
▁Although	-3585
▁Facebook	-3586
ION	-3587
You	-3588
ocks	-3589
raft	-3590
▁aren	-3591
▁paid	-3592
▁artist	-3593
▁finding	-3594
▁numbers	-3595
fit	-3596
▁cho	-3597
▁sou	-3598
itute	-3599
venue	-3600
▁Azzam	-3601
estival	-3602
▁expand	-3603
▁scient	-3604
▁videos	-3605
redients	-3606
▁Service	-3607
▁mentioned	-3608
▁investment	-3609
RO	-3610
bon	-3611
ico	-3612
▁ST	-3613
olly	-3614
house	-3615
▁Last	-3616
▁fans	-3617
▁poor	-3618
▁occur	-3619
▁trial	-3620
▁Online	-3621
▁couldn	-3622
▁street	-3623
▁Council	-3624
▁Program	-3625
▁surface	-3626
▁connection	-3627
▁Air	-3628
▁ran	-3629
azine	-3630
orida	-3631
rench	-3632
▁Time	-3633
▁kept	-3634
▁rules	-3635
▁altern	-3636
▁General	-3637
▁college	-3638
▁overall	-3639
▁passion	-3640
ech	-3641
men	-3642
sec	-3643
▁Ev	-3644
▁Ir	-3645
berg	-3646
▁Ret	-3647
ented	-3648
▁bath	-3649
ulated	-3650
▁Indian	-3651
▁Museum	-3652
▁apprec	-3653
▁island	-3654
rows	-3655
▁calc	-3656
▁gift	-3657
▁male	-3658
▁Class	-3659
▁adjust	-3660
▁produce	-3661
▁reality	-3662
▁discover	-3663
▁dumpster	-3664
oop	-3665
ota	-3666
www	-3667
rial	-3668
rief	-3669
▁Yes	-3670
▁copy	-3671
▁opin	-3672
▁snow	-3673
▁relax	-3674
▁rooms	-3675
▁cancer	-3676
▁devices	-3677
▁science	-3678
▁society	-3679
▁entertain	-3680
▁generally	-3681
ads	-3682
osh	-3683
rey	-3684
olic	-3685
▁beg	-3686
apter	-3687
▁doll	-3688
▁prop	-3689
▁Produ	-3690
▁north	-3691
▁driving	-3692
▁journey	-3693
▁Internet	-3694
▁analysis	-3695
▁teaching	-3696
▁Australia	-3697
▁experiences	-3698
itude	-3699
▁Like	-3700
▁anti	-3701
▁baby	-3702
▁decl	-3703
▁album	-3704
▁decor	-3705
▁demon	-3706
▁refer	-3707
▁billion	-3708
▁Services	-3709
LE	-3710
unte	-3711
▁Hel	-3712
▁Lou	-3713
▁Bill	-3714
▁gone	-3715
▁item	-3716
▁repe	-3717
▁accur	-3718
▁glass	-3719
▁steps	-3720
▁Develop	-3721
▁distrib	-3722
▁Research	-3723
ari	-3724
▁Cap	-3725
▁Tom	-3726
▁tool	-3727
igence	-3728
ustain	-3729
▁views	-3730
ampions	-3731
▁shared	-3732
▁British	-3733
▁appears	-3734
▁conflic	-3735
Re	-3736
ulf	-3737
unk	-3738
inct	-3739
odies	-3740
orial	-3741
▁wine	-3742
rating	-3743
▁assess	-3744
▁bottom	-3745
▁dinner	-3746
▁slight	-3747
▁toward	-3748
▁evidence	-3749
▁numerous	-3750
▁comfortable	-3751
ties	-3752
▁	-3753
e	-3754
t	-3755
a	-3756
o	-3757
i	-3758
n	-3759
s	-3760
r	-3761
h	-3762
l	-3763
d	-3764
c	-3765
u	-3766
m	-3767
f	-3768
p	-3769
g	-3770
y	-3771
w	-3772
b	-3773
.	-3774
,	-3775
v	-3776
k	-3777
T	-3778
I	-3779
S	-3780
A	-3781
-	-3782
C	-3783
0	-3784
1	-3785
M	-3786
x	-3787
P	-3788
’	-3789
B	-3790
2	-3791
W	-3792
D	-3793
E	-3794
H	-3795
R	-3796
F	-3797
L	-3798
O	-3799
N	-3800
j	-3801
G	-3802
'	-3803
:	-3804
z	-3805
)	-3806
(	-3807
q	-3808
3	-3809
5	-3810
J	-3811
"	-3812
9	-3813
4	-3814
U	-3815
8	-3816
|	-3817
6	-3818
“	-3819
7	-3820
Y	-3821
”	-3822
V	-3823
K	-3824
!	-3825
?	-3826
/	-3827
;	-3828
–	-3829
&	-3830
$	-3831
Q	-3832
—	-3833
‘	-3834
%	-3835
